001001110
001000000
000110001
001011000
000111100
000110101
000001101
111101110
000000000
000010011
110110110
111111010
110110000
111011110
111001110
110111010
111010011
110100111
111001000
000000010
000000101
000100001
000111101
111111111
000000000
111010010
000011110
111010000
111101001
000001100
000101111
000101010
111101110
000100011
111010000
001000000
111110100
000011010
000000011
111010111
000110000
111111100
000010101
001001011
111111110
000010111
000110101
000111101
111110011
111011001
000001010
000100100
000101000
111100101
111111001
001010101
111110110
111111000
110110000
111001000
000110011
001010100
111100111
111011100
110100001
000001110
000110101
111011101
111011001
110111110
000010010
001000010
000011011
000000110
111000011
001000011
111111101
111001010
110011010
110100001
000001100
111100011
111010101
111100010
110101100
111100100
110100111
111111010
110110001
110100010
110110100
110101110
110111110
111111111
111101100
000011011
110111111
111111011
111010001
110110111
000100100
110111101
111011010
000111000
000000000
000101111
111101100
000101100
000110001
000001111
111011001
000111011
000110100
000001010
000000011
111111001
000011111
111101110
000010000
111011000
000111010
111101100
000101111
000000111
111101011
000100111
000011101
111101010
000010001
111010110
000100010
111011010
111010110
111001110
111000001
110110011
111001001
110011101
110100010
000110000
110110000
110110101
111100000
000101100
000010111
111001111
000001010
001000010
001010111
001001110
